TRT-8003-EntropyCalibration2
input_0: 3cb1ab7d
191: 3c9268de
125: 3c9b43c1
126: 3c9b43c1
194: 3cacc309
129: 3c451e23
197: 3c9ebb83
132: 3ccd4702
133: 3cbf8fe9
200: 3c887b34
136: 3c4f461f
203: 3ccf95ba
139: 3d0280c9
140: 3d0280c9
206: 3c6e0075
143: 3c587218
209: 3c90329a
212: 3c848e3a
148: 3cabe238
149: 3ca5fee6
215: 3c82616a
152: 3c4f0532
218: 3cbc9f6a
155: 3cdad090
156: 3cdad090
221: 3c818c6c
159: 3c806652
224: 3c990be0
227: 3bfa42ca
164: 3ca2a71f
165: 3c92b61a
230: 3c8ad025
168: 3c391a2e
233: 3cc97e82
171: 3cb34e41
172: 3ca125c7
236: 3c4bc782
175: 3c1cc876
239: 3c912493
242: 3c418bd5
180: 3cc63faf
181: 3cab9b70
245: 3c8bef31
184: 3c15ef7f
248: 3ddf5006
187: 3df55161
188: 3d418306
189: 3d940f20
output_0: 3e273530
